#ifndef MODEL_H
#define MODEL_H


unsigned intmodel_len=3872;
const unsigned char model[] = {
0x20, 0x00, 0x00, 0x00, 0x54, 0x46, 0x4c, 0x33, 0x00, 0x00, 0x00, 0x00,
 0x00, 0x00, 0x12, 0x00, 0x1c, 0x00, 0x04, 0x00, 0x08, 0x00, 0x0c, 0x00,
 0x10, 0x00, 0x14, 0x00, 0x00, 0x00, 0x18, 0x00, 0x12, 0x00, 0x00, 0x00,
 0x03, 0x00, 0x00, 0x00, 0xb8, 0x0e, 0x00, 0x00, 0x70, 0x07, 0x00, 0x00,
 0x58, 0x07, 0x00, 0x00, 0x3c, 0x00, 0x00, 0x00, 0x04, 0x00, 0x00, 0x00,
 0x01, 0x00, 0x00, 0x00, 0x0c, 0x00, 0x00, 0x00, 0x08, 0x00, 0x0c, 0x00,
 0x04, 0x00, 0x08, 0x00, 0x08, 0x00, 0x00, 0x00, 0x08, 0x00, 0x00, 0x00,
 0x0f, 0x00, 0x00, 0x00, 0x13, 0x00, 0x00, 0x00, 0x6d, 0x69, 0x6e, 0x5f,
 0x72, 0x75, 0x6e, 0x74, 0x69, 0x6d, 0x65, 0x5f, 0x76, 0x65, 0x72, 0x73,
 0x69, 0x6f, 0x6e, 0x00, 0x10, 0x00, 0x00, 0x00, 0x08, 0x07, 0x00, 0x00,
 0xf4, 0x06, 0x00, 0x00, 0xd8, 0x06, 0x00, 0x00, 0x74, 0x06, 0x00, 0x00,
 0x30, 0x06, 0x00, 0x00, 0xfc, 0x05, 0x00, 0x00, 0xc8, 0x05, 0x00, 0x00,
 0xc4, 0x04, 0x00, 0x00, 0x90, 0x01, 0x00, 0x00, 0x8c, 0x00, 0x00, 0x00,
 0x80, 0x00, 0x00, 0x00, 0x6c, 0x00, 0x00, 0x00, 0x58, 0x00, 0x00, 0x00,
 0x44, 0x00, 0x00, 0x00, 0x30, 0x00, 0x00, 0x00, 0x04, 0x00, 0x00, 0x00,
 0x9a, 0xf8, 0xff, 0xff, 0x04, 0x00, 0x00, 0x00, 0x10, 0x00, 0x00, 0x00,
 0x31, 0x2e, 0x35, 0x2e, 0x30, 0x00, 0x00, 0x00, 0x00, 0x00, 0x00, 0x00,
 0x00, 0x00, 0x00, 0x00, 0x00, 0x00, 0x00, 0x00, 0x00, 0x00, 0x00, 0x00,
 0x00, 0x00, 0x00, 0x00, 0x24, 0xf2, 0xff, 0xff, 0x00, 0x00, 0x00, 0x00,
 0x00, 0x00, 0x00, 0x00, 0x00, 0x00, 0x00, 0x00, 0x34, 0xf2, 0xff, 0xff,
 0x00, 0x00, 0x00, 0x00, 0x00, 0x00, 0x00, 0x00, 0x00, 0x00, 0x00, 0x00,
 0x44, 0xf2, 0xff, 0xff, 0x00, 0x00, 0x00, 0x00, 0x00, 0x00, 0x00, 0x00,
 0x00, 0x00, 0x00, 0x00, 0x54, 0xf2, 0xff, 0xff, 0x00, 0x00, 0x00, 0x00,
 0x00, 0x00, 0x00, 0x00, 0x00, 0x00, 0x00, 0x00, 0x64, 0xf2, 0xff, 0xff,
 0x00, 0x00, 0x00, 0x00, 0x0a, 0xf9, 0xff, 0xff, 0x04, 0x00, 0x00, 0x00,
 0xf0, 0x00, 0x00, 0x00, 0x21, 0xdc, 0x38, 0x3e, 0x1f, 0xf9, 0x78, 0xbf,
 0xad, 0x0b, 0xc0, 0x3e, 0x6a, 0xfc, 0xe9, 0x3e, 0x91, 0x6d, 0xb8, 0x3e,
 0xd4, 0x34, 0xd4, 0x3e, 0x55, 0x5b, 0x05, 0x3e, 0xb8, 0x69, 0xd1, 0x3e,
 0x69, 0x6f, 0x40, 0xbf, 0xe6, 0xd4, 0x38, 0xbe, 0x7a, 0xfa, 0x98, 0x3e,
 0xcb, 0x58, 0xce, 0x3e, 0xb7, 0xa9, 0xf7, 0x3e, 0xdc, 0xea, 0xfa, 0x3e,
 0x59, 0xdb, 0xe4, 0x3e, 0xf5, 0x18, 0xe7, 0x3e, 0x06, 0x85, 0x1e, 0x3f,
 0x39, 0x2f, 0xe2, 0x3e, 0xe4, 0x25, 0xa2, 0xbe, 0xca, 0xf0, 0x8d, 0xbe,
 0xe2, 0x69, 0x70, 0x3e, 0x5c, 0x97, 0x03, 0x3f, 0x64, 0x87, 0xd9, 0x3e,
 0x54, 0x64, 0xc2, 0x3e, 0x5d, 0x9b, 0x6e, 0x3c, 0xcc, 0x08, 0xaf, 0x3e,
 0x5d, 0x3f, 0x2b, 0xbf, 0x55, 0x7d, 0xb5, 0x3e, 0x5c, 0xdb, 0xed, 0x3b,
 0xbd, 0x1b, 0xaf, 0x3e, 0x20, 0x44, 0x7c, 0xbe, 0x68, 0x95, 0xbd, 0xbc,
 0x2c, 0x9b, 0x74, 0xbd, 0x88, 0x31, 0xe0, 0x3e, 0x97, 0x63, 0xa5, 0x3e,
 0x1d, 0x3c, 0xcf, 0x3e, 0xd7, 0x75, 0xbf, 0x3d, 0x72, 0x42, 0xc2, 0x3e,
 0x18, 0xd9, 0xe1, 0x3e, 0x6d, 0x0d, 0x06, 0x3e, 0x18, 0x27, 0x02, 0x3f,
 0x9c, 0xb5, 0x8e, 0xbf, 0x9f, 0x03, 0x1f, 0x3f, 0xeb, 0x80, 0x4f, 0xc0,
 0x9c, 0xaa, 0x62, 0xc0, 0x58, 0x14, 0x9e, 0xbf, 0x91, 0xae, 0x90, 0x3f,
 0xaa, 0x1b, 0x94, 0xc0, 0xcc, 0x71, 0xb5, 0xc0, 0xba, 0xb8, 0xd9, 0x3d,
 0x30, 0xde, 0x45, 0xc1, 0xc5, 0xb8, 0x95, 0xc0, 0x3a, 0xab, 0x27, 0xc1,
 0x93, 0x3f, 0x7c, 0xc0, 0x7e, 0xcc, 0xba, 0xc0, 0x9c, 0xc9, 0xc1, 0xc0,
 0x68, 0x93, 0xf2, 0xc0, 0xe7, 0x6a, 0x88, 0xc0, 0x40, 0x0f, 0xa5, 0x3e,
 0x51, 0x9e, 0x14, 0x3e, 0x00, 0x00, 0x00, 0x00, 0x0a, 0xfa, 0xff, 0xff,
 0x04, 0x00, 0x00, 0x00, 0x20, 0x03, 0x00, 0x00, 0x80, 0x0d, 0xa7, 0x3e,
 0x0e, 0x64, 0x07, 0xbf, 0xa7, 0xf2, 0x10, 0xbf, 0x7e, 0x2a, 0x1b, 0x3f,
 0x09, 0x2f, 0x7c, 0x3e, 0x45, 0x39, 0x6c, 0xbe, 0x84, 0x0c, 0x6d, 0xbe,
 0x8a, 0x08, 0x80, 0x3e, 0xa2, 0xf3, 0x0a, 0xbb, 0x2d, 0xf7, 0x8b, 0x40,
 0x9e, 0xaa, 0x63, 0xbf, 0xcd, 0x5e, 0xbb, 0x3d, 0x6f, 0x7a, 0x62, 0x3e,
 0xa4, 0x60, 0x95, 0x3f, 0x02, 0x76, 0xb7, 0x3e, 0xa8, 0x4a, 0x29, 0x3f,
 0x7b, 0xea, 0x33, 0x40, 0xff, 0xaf, 0xa1, 0x3f, 0x88, 0x00, 0xc6, 0xbe,
 0x5c, 0x49, 0xec, 0x3e, 0x50, 0x3a, 0x5f, 0x3e, 0x43, 0x9c, 0x55, 0x3e,
 0x3a, 0xdf, 0xc3, 0x3e, 0x25, 0xe1, 0x71, 0x3f, 0x54, 0x7f, 0xae, 0xbf,
 0x11, 0x3e, 0x8e, 0xbf, 0x1d, 0x05, 0x09, 0xc0, 0x88, 0xff, 0x1c, 0xbe,
 0xe5, 0x95, 0x4f, 0xbd, 0x87, 0x38, 0x12, 0xbd, 0x97, 0x4a, 0xce, 0x3e,
 0x26, 0x54, 0x92, 0x3e, 0x2c, 0x5f, 0x6e, 0x3e, 0x35, 0x3e, 0xba, 0xbe,
 0x80, 0x05, 0xbe, 0x3d, 0x2c, 0x90, 0x81, 0xbe, 0x89, 0x9b, 0x35, 0xbe,
 0x85, 0x98, 0xf8, 0x3c, 0x25, 0x27, 0x8e, 0xbf, 0x5b, 0x68, 0xf9, 0xbd,
 0x21, 0xe7, 0x1f, 0xbf, 0x80, 0xac, 0xa8, 0xbe, 0x07, 0x08, 0x3c, 0xbf,
 0xf5, 0x1b, 0x25, 0xbc, 0xaf, 0x8e, 0x3a, 0x3f, 0x11, 0x57, 0x88, 0xbe,
 0x0e, 0x96, 0x87, 0xbe, 0x64, 0x98, 0x2b, 0xbe, 0x5b, 0x8c, 0xcd, 0xbe,
 0xa2, 0x34, 0x56, 0x40, 0xe2, 0x84, 0x87, 0xbf, 0x05, 0x09, 0xb7, 0x3d,
 0x43, 0xd0, 0x18, 0xbf, 0x1a, 0x5e, 0xa8, 0x3f, 0x28, 0xf4, 0xca, 0xbd,
 0xe1, 0x79, 0x63, 0x3f, 0x43, 0xcb, 0xf2, 0x3f, 0x91, 0x87, 0xf7, 0x3f,
 0x41, 0x47, 0xfb, 0xbe, 0x12, 0xbd, 0x90, 0x3f, 0x47, 0x45, 0x1d, 0x3f,
 0x01, 0x7c, 0xa3, 0x3f, 0x8d, 0x2d, 0x3a, 0x40, 0xb7, 0x96, 0x59, 0x40,
 0xa5, 0x1a, 0x87, 0xbf, 0x3c, 0x92, 0x01, 0x40, 0xfa, 0x40, 0x15, 0x40,
 0xd0, 0xd6, 0xd0, 0xbc, 0x9c, 0xeb, 0x8c, 0x3f, 0x01, 0xb2, 0x2b, 0xbf,
 0x56, 0x64, 0xff, 0x3f, 0xa9, 0x49, 0x12, 0x3f, 0x28, 0x8c, 0x30, 0x3f,
 0x71, 0xf8, 0x9b, 0x3c, 0x18, 0x2f, 0x71, 0x3e, 0x27, 0x51, 0x66, 0x3d,
 0x1f, 0xf2, 0xf5, 0xbe, 0xe3, 0xa7, 0x18, 0xbc, 0xc5, 0x79, 0x42, 0x40,
 0xf4, 0x0b, 0x0e, 0x3d, 0x55, 0x11, 0xc4, 0xbd, 0x91, 0xfc, 0x63, 0x3f,
 0xaa, 0x3e, 0x92, 0x3f, 0xcd, 0xae, 0x80, 0x3f, 0x73, 0xdb, 0x73, 0x3f,
 0xe6, 0xb9, 0x3f, 0x3f, 0xea, 0x88, 0x07, 0x3f, 0xc0, 0xf1, 0x4c, 0x3e,
 0x63, 0xf6, 0x8a, 0x3e, 0x4c, 0x2f, 0x16, 0xbe, 0xc6, 0x3d, 0xca, 0x3f,
 0x14, 0x0b, 0xff, 0xbd, 0x33, 0xd6, 0x78, 0xbd, 0x19, 0x27, 0x7f, 0xbf,
 0xec, 0xb2, 0xb3, 0x3e, 0x9d, 0x9a, 0x8d, 0xbd, 0xf6, 0x47, 0x15, 0x3e,
 0x92, 0x0a, 0x6b, 0xbd, 0xb3, 0x33, 0x9a, 0x3f, 0xa2, 0x4c, 0xfb, 0xbd,
 0xa4, 0xf4, 0xda, 0x3e, 0x64, 0xca, 0x3f, 0x3f, 0xc5, 0xc5, 0x34, 0x40,
 0xcb, 0xcb, 0x68, 0x40, 0xef, 0x1d, 0x40, 0xbf, 0x31, 0xba, 0xe4, 0x3f,
 0x16, 0x95, 0xf5, 0x3f, 0xda, 0xd4, 0xe1, 0x3e, 0x05, 0x63, 0x2e, 0x3f,
 0xba, 0x8c, 0x29, 0xbf, 0xec, 0x5f, 0x03, 0x40, 0xab, 0xf2, 0x10, 0x3f,
 0xd4, 0x57, 0x11, 0x3f, 0xde, 0xcd, 0x4f, 0x3d, 0x0a, 0xe0, 0x6d, 0xbe,
 0xf8, 0xd8, 0xa1, 0x3d, 0x40, 0x71, 0xfe, 0xbe, 0x27, 0xa5, 0xdd, 0x3c,
 0x9a, 0x41, 0x17, 0x40, 0x54, 0x30, 0x83, 0x3d, 0xdc, 0x42, 0x80, 0xbd,
 0x26, 0xc0, 0xb1, 0xbe, 0x24, 0x06, 0x8d, 0x3e, 0xec, 0xca, 0x47, 0x3f,
 0x53, 0x5b, 0xb9, 0x3e, 0x7e, 0xa4, 0xef, 0x3c, 0x08, 0xa2, 0xfa, 0xbd,
 0xe8, 0x0e, 0xea, 0xbd, 0x43, 0xae, 0xab, 0xbd, 0x15, 0x30, 0x54, 0x40,
 0x19, 0xdb, 0xff, 0x3e, 0x8d, 0x44, 0x44, 0xbc, 0xa7, 0x88, 0x5d, 0xbd,
 0xd1, 0x93, 0x46, 0xbf, 0x03, 0xe9, 0x4f, 0xbe, 0x20, 0xab, 0xc4, 0x3e,
 0x11, 0x78, 0x17, 0x40, 0xf4, 0x53, 0xce, 0x3d, 0xb2, 0x6c, 0xac, 0x3e,
 0x54, 0x07, 0x74, 0x3e, 0xa1, 0x02, 0x10, 0x3f, 0x83, 0xa0, 0x95, 0x3f,
 0x35, 0x38, 0x3b, 0x40, 0xbe, 0x0c, 0x6d, 0x40, 0x35, 0x12, 0x3c, 0xbf,
 0xfb, 0x98, 0x0e, 0x40, 0x4a, 0x53, 0xfb, 0x3f, 0xaa, 0xb5, 0xbd, 0xbe,
 0x72, 0xda, 0x95, 0x3f, 0x9f, 0x72, 0x05, 0xbf, 0xbf, 0x05, 0x09, 0x40,
 0x64, 0x63, 0x0c, 0x3f, 0xce, 0xe2, 0x11, 0x3f, 0xc0, 0xa6, 0x05, 0xbd,
 0x50, 0x0a, 0xca, 0xbd, 0x2f, 0x25, 0xb0, 0xbc, 0x91, 0xb2, 0xa4, 0xbe,
 0x64, 0x3e, 0xbd, 0xbc, 0x3a, 0xea, 0x35, 0x40, 0x8c, 0x8b, 0x16, 0x3d,
 0x4d, 0x58, 0xdd, 0xbe, 0xb4, 0x6a, 0x19, 0x3d, 0x81, 0x63, 0x59, 0x3f,
 0x5f, 0xf2, 0x45, 0xbe, 0x83, 0xfe, 0x5f, 0xc0, 0xbe, 0x5a, 0x30, 0xbc,
 0x1c, 0x8b, 0x4c, 0xbe, 0x1e, 0x10, 0x9a, 0x3e, 0x3f, 0xe7, 0x27, 0xbf,
 0x77, 0x3d, 0x6a, 0xbf, 0xe7, 0x95, 0xd1, 0xbf, 0x38, 0xea, 0x2b, 0xbf,
 0x42, 0x02, 0xe2, 0xbe, 0x1e, 0x63, 0xa8, 0xbe, 0x2c, 0xda, 0xce, 0x3e,
 0x23, 0x0e, 0x08, 0xbe, 0x05, 0x2b, 0x65, 0xbf, 0x71, 0xde, 0x0b, 0xbe,
 0x8c, 0x7f, 0xef, 0xbd, 0x86, 0xeb, 0x41, 0xbe, 0x6c, 0x77, 0x43, 0x3c,
 0x26, 0x6f, 0x1f, 0xbe, 0xca, 0xcf, 0x89, 0x3a, 0x81, 0x58, 0xcd, 0xbe,
 0xae, 0x60, 0x20, 0x3c, 0x82, 0x2b, 0x8f, 0xbe, 0x14, 0x0a, 0x4b, 0x3d,
 0xb0, 0x8d, 0xed, 0x3c, 0x4a, 0xa0, 0x9c, 0xbe, 0xdc, 0x3a, 0x6d, 0xbd,
 0x59, 0xca, 0xa0, 0x3d, 0xb0, 0x7e, 0xfc, 0xbd, 0x73, 0xa0, 0x9d, 0xbe,
 0x70, 0xf3, 0xd9, 0xbe, 0x9f, 0x3f, 0xaa, 0xbe, 0x43, 0x2d, 0xb4, 0xbe,
 0x51, 0x1a, 0x89, 0xbe, 0x52, 0x9a, 0x0c, 0xbe, 0xe5, 0x5f, 0x82, 0x3b,
 0x10, 0x53, 0x71, 0xbe, 0x00, 0x00, 0x00, 0x00, 0x3a, 0xfd, 0xff, 0xff,
 0x04, 0x00, 0x00, 0x00, 0xf0, 0x00, 0x00, 0x00, 0xf9, 0xbb, 0x19, 0x3f,
 0x28, 0x81, 0x3c, 0xbf, 0xb9, 0xd0, 0xb0, 0x3e, 0x8e, 0xc3, 0x49, 0x3f,
 0x3f, 0x86, 0x7c, 0xbf, 0xee, 0x40, 0x12, 0xbf, 0x5d, 0x53, 0x45, 0x3f,
 0xfe, 0x2e, 0x3e, 0xc0, 0x0b, 0xea, 0x8a, 0x3e, 0x1b, 0xef, 0x34, 0x3f,
 0x24, 0xf7, 0x3a, 0xc0, 0xcd, 0xf8, 0x3d, 0x3e, 0x3e, 0x98, 0x9e, 0xbc,
 0x24, 0x9a, 0xb2, 0x3e, 0xad, 0x20, 0x45, 0x3f, 0x4c, 0xb3, 0x36, 0xbf,
 0x4b, 0x55, 0x49, 0x3f, 0xc0, 0xf9, 0xf2, 0x3e, 0x29, 0x05, 0x39, 0xbf,
 0x28, 0x5d, 0x4e, 0x3f, 0xa0, 0xb7, 0x23, 0x3f, 0xe6, 0x78, 0xf3, 0xbe,
 0x90, 0xaa, 0xb6, 0xbc, 0x79, 0xbe, 0x9c, 0xbe, 0x81, 0x49, 0xf4, 0xbe,
 0xf0, 0x18, 0x11, 0x3f, 0xe5, 0x21, 0x55, 0x3f, 0x71, 0x7d, 0xf1, 0x3d,
 0x73, 0xfc, 0x25, 0x3f, 0xe8, 0x10, 0xc7, 0x3e, 0x1f, 0x8a, 0x0f, 0x3f,
 0x71, 0xac, 0xe9, 0xbe, 0x0c, 0x88, 0x01, 0x3f, 0xe8, 0x27, 0x50, 0x3e,
 0x92, 0x21, 0x68, 0xbe, 0x47, 0x76, 0x0f, 0x3f, 0x46, 0xd4, 0x0a, 0x3f,
 0xeb, 0xaa, 0x29, 0xbf, 0xef, 0xd7, 0xbf, 0x3e, 0x6b, 0x22, 0x1b, 0x3f,
 0x38, 0x79, 0x30, 0x3e, 0xf9, 0x83, 0xb8, 0xc0, 0x2a, 0xe0, 0xbe, 0xbe,
 0x9b, 0xfc, 0xdd, 0xbe, 0xbd, 0x31, 0x8a, 0xbe, 0xb6, 0x32, 0x1f, 0x3f,
 0xe7, 0x9c, 0xbf, 0x3e, 0x8c, 0x0a, 0x74, 0x3e, 0x3c, 0xdc, 0x39, 0xbd,
 0x38, 0xa5, 0x48, 0x3f, 0x32, 0x80, 0xce, 0x3e, 0xf7, 0xa1, 0x38, 0x3f,
 0xa2, 0x72, 0x06, 0x3f, 0x83, 0x3a, 0xdb, 0x3e, 0x06, 0xad, 0xda, 0xbf,
 0xe7, 0x9a, 0x30, 0x3f, 0xcf, 0x3a, 0xc8, 0x3e, 0x31, 0xf3, 0x32, 0x3f,
 0x32, 0x73, 0x74, 0x3e, 0x42, 0x31, 0xfc, 0x3e, 0x00, 0x00, 0x00, 0x00,
 0x3a, 0xfe, 0xff, 0xff, 0x04, 0x00, 0x00, 0x00, 0x24, 0x00, 0x00, 0x00,
 0x54, 0xa2, 0x9b, 0xbf, 0xcc, 0x86, 0x7d, 0xbe, 0x02, 0x5a, 0x6f, 0x3f,
 0xc3, 0x5a, 0x62, 0x3f, 0x47, 0xf5, 0x9a, 0xbf, 0x1a, 0xc3, 0x62, 0x3f,
 0xae, 0xa2, 0x75, 0xbe, 0xf4, 0x45, 0xbc, 0x3e, 0xbd, 0x5b, 0xad, 0xbf,
 0x6a, 0xfe, 0xff, 0xff, 0x04, 0x00, 0x00, 0x00, 0x18, 0x00, 0x00, 0x00,
 0x2a, 0x29, 0x90, 0xbf, 0x35, 0xcb, 0x6c, 0xbf, 0x9b, 0x85, 0x0a, 0x3f,
 0x0e, 0x1a, 0x1c, 0xbd, 0x21, 0x6d, 0x1d, 0xbf, 0xde, 0xfc, 0x4e, 0x40,
 0x00, 0x00, 0x00, 0x00, 0x00, 0x00, 0x00, 0x00, 0x00, 0x00, 0x00, 0x00,
 0x9a, 0xfe, 0xff, 0xff, 0x04, 0x00, 0x00, 0x00, 0x28, 0x00, 0x00, 0x00,
 0xc2, 0x0d, 0x17, 0xbb, 0x1c, 0xda, 0x92, 0xb9, 0x7e, 0x2c, 0x80, 0xbb,
 0x63, 0x81, 0xe0, 0xba, 0xff, 0x0a, 0xa7, 0xbb, 0x02, 0x19, 0xa7, 0xbb,
 0xa7, 0x83, 0x37, 0xbc, 0x96, 0x91, 0xcd, 0xbb, 0x83, 0x4d, 0xbd, 0x3f,
 0x09, 0xbd, 0x9a, 0xbe, 0x00, 0x00, 0x00, 0x00, 0x00, 0x00, 0x00, 0x00,
 0x00, 0x00, 0x00, 0x00, 0xda, 0xfe, 0xff, 0xff, 0x04, 0x00, 0x00, 0x00,
 0x50, 0x00, 0x00, 0x00, 0x60, 0xbb, 0xa1, 0x3e, 0x68, 0x47, 0xd7, 0x3e,
 0x06, 0xdd, 0xa8, 0xbe, 0xfb, 0xaa, 0x1a, 0xbf, 0x98, 0x26, 0x14, 0xbf,
 0x9a, 0xb6, 0xfd, 0xbe, 0x0f, 0x9f, 0x01, 0xbf, 0x00, 0x00, 0x00, 0x00,
 0xe6, 0xcb, 0x94, 0xbe, 0x42, 0x64, 0xcf, 0xbf, 0xf5, 0x16, 0x17, 0xbf,
 0x40, 0x51, 0xc1, 0x3d, 0x20, 0xd5, 0x90, 0x3e, 0xbe, 0x4b, 0x2c, 0xbe,
 0x00, 0x00, 0x00, 0x00, 0x62, 0x4b, 0x53, 0xbe, 0xb0, 0x3d, 0xbb, 0xbf,
 0xc8, 0x89, 0x32, 0xbf, 0xda, 0xee, 0x03, 0xbf, 0x7f, 0xc9, 0x00, 0xbe,
 0x00, 0x00, 0x00, 0x00, 0x3a, 0xff, 0xff, 0xff, 0x04, 0x00, 0x00, 0x00,
 0x0c, 0x00, 0x00, 0x00, 0x74, 0x59, 0x93, 0x3e, 0xf4, 0xcb, 0xb0, 0x3e,
 0x22, 0xeb, 0x18, 0x3e, 0xb4, 0xf8, 0xff, 0xff, 0x00, 0x00, 0x00, 0x00,
 0x00, 0x00, 0x00, 0x00, 0x00, 0x00, 0x00, 0x00, 0xc4, 0xf8, 0xff, 0xff,
 0x00, 0x00, 0x00, 0x00, 0x00, 0x00, 0x00, 0x00, 0x0f, 0x00, 0x00, 0x00,
 0x4d, 0x4c, 0x49, 0x52, 0x20, 0x43, 0x6f, 0x6e, 0x76, 0x65, 0x72, 0x74,
 0x65, 0x64, 0x2e, 0x00, 0x01, 0x00, 0x00, 0x00, 0x14, 0x00, 0x00, 0x00,
 0x00, 0x00, 0x0e, 0x00, 0x18, 0x00, 0x04, 0x00, 0x08, 0x00, 0x0c, 0x00,
 0x10, 0x00, 0x14, 0x00, 0x0e, 0x00, 0x00, 0x00, 0x84, 0x01, 0x00, 0x00,
 0x78, 0x01, 0x00, 0x00, 0x6c, 0x01, 0x00, 0x00, 0x14, 0x00, 0x00, 0x00,
 0x04, 0x00, 0x00, 0x00, 0x04, 0x00, 0x00, 0x00, 0x6d, 0x61, 0x69, 0x6e,
 0x00, 0x00, 0x00, 0x00, 0x05, 0x00, 0x00, 0x00, 0x14, 0x01, 0x00, 0x00,
 0xcc, 0x00, 0x00, 0x00, 0x84, 0x00, 0x00, 0x00, 0x50, 0x00, 0x00, 0x00,
 0x14, 0x00, 0x00, 0x00, 0x00, 0x00, 0x0e, 0x00, 0x1a, 0x00, 0x08, 0x00,
 0x0c, 0x00, 0x10, 0x00, 0x07, 0x00, 0x14, 0x00, 0x0e, 0x00, 0x00, 0x00,
 0x00, 0x00, 0x00, 0x09, 0x01, 0x00, 0x00, 0x00, 0x24, 0x00, 0x00, 0x00,
 0x18, 0x00, 0x00, 0x00, 0x0c, 0x00, 0x00, 0x00, 0x00, 0x00, 0x06, 0x00,
 0x08, 0x00, 0x04, 0x00, 0x06, 0x00, 0x00, 0x00, 0x00, 0x00, 0x80, 0x3f,
 0x01, 0x00, 0x00, 0x00, 0x0d, 0x00, 0x00, 0x00, 0x01, 0x00, 0x00, 0x00,
 0x0c, 0x00, 0x00, 0x00, 0x9a, 0xff, 0xff, 0xff, 0x00, 0x00, 0x00, 0x08,
 0x18, 0x00, 0x00, 0x00, 0x0c, 0x00, 0x00, 0x00, 0x04, 0x00, 0x00, 0x00,
 0x94, 0xf9, 0xff, 0xff, 0x01, 0x00, 0x00, 0x00, 0x0c, 0x00, 0x00, 0x00,
 0x03, 0x00, 0x00, 0x00, 0x0b, 0x00, 0x00, 0x00, 0x08, 0x00, 0x00, 0x00,
 0x04, 0x00, 0x00, 0x00, 0xca, 0xff, 0xff, 0xff, 0x00, 0x00, 0x00, 0x08,
 0x1c, 0x00, 0x00, 0x00, 0x10, 0x00, 0x00, 0x00, 0x04, 0x00, 0x00, 0x00,
 0x76, 0xff, 0xff, 0xff, 0x00, 0x00, 0x00, 0x01, 0x01, 0x00, 0x00, 0x00,
 0x0b, 0x00, 0x00, 0x00, 0x03, 0x00, 0x00, 0x00, 0x0a, 0x00, 0x00, 0x00,
 0x07, 0x00, 0x00, 0x00, 0x03, 0x00, 0x00, 0x00, 0x00, 0x00, 0x0e, 0x00,
 0x14, 0x00, 0x00, 0x00, 0x08, 0x00, 0x0c, 0x00, 0x07, 0x00, 0x10, 0x00,
 0x0e, 0x00, 0x00, 0x00, 0x00, 0x00, 0x00, 0x08, 0x1c, 0x00, 0x00, 0x00,
 0x10, 0x00, 0x00, 0x00, 0x04, 0x00, 0x00, 0x00, 0xba, 0xff, 0xff, 0xff,
 0x00, 0x00, 0x00, 0x01, 0x01, 0x00, 0x00, 0x00, 0x0a, 0x00, 0x00, 0x00,
 0x03, 0x00, 0x00, 0x00, 0x09, 0x00, 0x00, 0x00, 0x06, 0x00, 0x00, 0x00,
 0x02, 0x00, 0x00, 0x00, 0x00, 0x00, 0x0e, 0x00, 0x16, 0x00, 0x00, 0x00,
 0x08, 0x00, 0x0c, 0x00, 0x07, 0x00, 0x10, 0x00, 0x0e, 0x00, 0x00, 0x00,
 0x00, 0x00, 0x00, 0x08, 0x24, 0x00, 0x00, 0x00, 0x18, 0x00, 0x00, 0x00,
 0x0c, 0x00, 0x00, 0x00, 0x00, 0x00, 0x06, 0x00, 0x08, 0x00, 0x07, 0x00,
 0x06, 0x00, 0x00, 0x00, 0x00, 0x00, 0x00, 0x01, 0x01, 0x00, 0x00, 0x00,
 0x09, 0x00, 0x00, 0x00, 0x03, 0x00, 0x00, 0x00, 0x00, 0x00, 0x00, 0x00,
 0x05, 0x00, 0x00, 0x00, 0x01, 0x00, 0x00, 0x00, 0x01, 0x00, 0x00, 0x00,
 0x0d, 0x00, 0x00, 0x00, 0x01, 0x00, 0x00, 0x00, 0x00, 0x00, 0x00, 0x00,
 0x0e, 0x00, 0x00, 0x00, 0x54, 0x05, 0x00, 0x00, 0xe0, 0x04, 0x00, 0x00,
 0x70, 0x04, 0x00, 0x00, 0x10, 0x04, 0x00, 0x00, 0xb0, 0x03, 0x00, 0x00,
 0x64, 0x03, 0x00, 0x00, 0x18, 0x03, 0x00, 0x00, 0xcc, 0x02, 0x00, 0x00,
 0x80, 0x02, 0x00, 0x00, 0xec, 0x01, 0x00, 0x00, 0x58, 0x01, 0x00, 0x00,
 0xc4, 0x00, 0x00, 0x00, 0x4c, 0x00, 0x00, 0x00, 0x04, 0x00, 0x00, 0x00,
 0xf8, 0xfa, 0xff, 0xff, 0x34, 0x00, 0x00, 0x00, 0x0e, 0x00, 0x00, 0x00,
 0x1c, 0x00, 0x00, 0x00, 0x14, 0x00, 0x00, 0x00, 0x04, 0x00, 0x00, 0x00,
 0x02, 0x00, 0x00, 0x00, 0xff, 0xff, 0xff, 0xff, 0x06, 0x00, 0x00, 0x00,
 0xe4, 0xfa, 0xff, 0xff, 0x08, 0x00, 0x00, 0x00, 0x49, 0x64, 0x65, 0x6e,
 0x74, 0x69, 0x74, 0x79, 0x00, 0x00, 0x00, 0x00, 0x02, 0x00, 0x00, 0x00,
 0x01, 0x00, 0x00, 0x00, 0x06, 0x00, 0x00, 0x00, 0x3c, 0xfb, 0xff, 0xff,
 0x64, 0x00, 0x00, 0x00, 0x0d, 0x00, 0x00, 0x00, 0x1c, 0x00, 0x00, 0x00,
 0x14, 0x00, 0x00, 0x00, 0x04, 0x00, 0x00, 0x00, 0x02, 0x00, 0x00, 0x00,
 0xff, 0xff, 0xff, 0xff, 0x06, 0x00, 0x00, 0x00, 0x28, 0xfb, 0xff, 0xff,
 0x3a, 0x00, 0x00, 0x00, 0x73, 0x65, 0x71, 0x75, 0x65, 0x6e, 0x74, 0x69,
 0x61, 0x6c, 0x5f, 0x37, 0x2f, 0x64, 0x65, 0x6e, 0x73, 0x65, 0x5f, 0x33,
 0x33, 0x2f, 0x4d, 0x61, 0x74, 0x4d, 0x75, 0x6c, 0x3b, 0x73, 0x65, 0x71,
 0x75, 0x65, 0x6e, 0x74, 0x69, 0x61, 0x6c, 0x5f, 0x37, 0x2f, 0x64, 0x65,
 0x6e, 0x73, 0x65, 0x5f, 0x33, 0x33, 0x2f, 0x42, 0x69, 0x61, 0x73, 0x41,
 0x64, 0x64, 0x00, 0x00, 0x02, 0x00, 0x00, 0x00, 0x01, 0x00, 0x00, 0x00,
 0x06, 0x00, 0x00, 0x00, 0xb0, 0xfb, 0xff, 0xff, 0x80, 0x00, 0x00, 0x00,
 0x0c, 0x00, 0x00, 0x00, 0x1c, 0x00, 0x00, 0x00, 0x14, 0x00, 0x00, 0x00,
 0x04, 0x00, 0x00, 0x00, 0x02, 0x00, 0x00, 0x00, 0xff, 0xff, 0xff, 0xff,
 0x0a, 0x00, 0x00, 0x00, 0x9c, 0xfb, 0xff, 0xff, 0x55, 0x00, 0x00, 0x00,
 0x73, 0x65, 0x71, 0x75, 0x65, 0x6e, 0x74, 0x69, 0x61, 0x6c, 0x5f, 0x37,
 0x2f, 0x64, 0x65, 0x6e, 0x73, 0x65, 0x5f, 0x33, 0x32, 0x2f, 0x4d, 0x61,
 0x74, 0x4d, 0x75, 0x6c, 0x3b, 0x73, 0x65, 0x71, 0x75, 0x65, 0x6e, 0x74,
 0x69, 0x61, 0x6c, 0x5f, 0x37, 0x2f, 0x64, 0x65, 0x6e, 0x73, 0x65, 0x5f,
 0x33, 0x32, 0x2f, 0x42, 0x69, 0x61, 0x73, 0x41, 0x64, 0x64, 0x3b, 0x73,
 0x65, 0x71, 0x75, 0x65, 0x6e, 0x74, 0x69, 0x61, 0x6c, 0x5f, 0x37, 0x2f,
 0x64, 0x65, 0x6e, 0x73, 0x65, 0x5f, 0x33, 0x32, 0x2f, 0x52, 0x65, 0x6c,
 0x75, 0x00, 0x00, 0x00, 0x02, 0x00, 0x00, 0x00, 0x01, 0x00, 0x00, 0x00,
 0x0a, 0x00, 0x00, 0x00, 0x40, 0xfc, 0xff, 0xff, 0x80, 0x00, 0x00, 0x00,
 0x0b, 0x00, 0x00, 0x00, 0x1c, 0x00, 0x00, 0x00, 0x14, 0x00, 0x00, 0x00,
 0x04, 0x00, 0x00, 0x00, 0x02, 0x00, 0x00, 0x00, 0xff, 0xff, 0xff, 0xff,
 0x14, 0x00, 0x00, 0x00, 0x2c, 0xfc, 0xff, 0xff, 0x55, 0x00, 0x00, 0x00,
 0x73, 0x65, 0x71, 0x75, 0x65, 0x6e, 0x74, 0x69, 0x61, 0x6c, 0x5f, 0x37,
 0x2f, 0x64, 0x65, 0x6e, 0x73, 0x65, 0x5f, 0x33, 0x31, 0x2f, 0x4d, 0x61,
 0x74, 0x4d, 0x75, 0x6c, 0x3b, 0x73, 0x65, 0x71, 0x75, 0x65, 0x6e, 0x74,
 0x69, 0x61, 0x6c, 0x5f, 0x37, 0x2f, 0x64, 0x65, 0x6e, 0x73, 0x65, 0x5f,
 0x33, 0x31, 0x2f, 0x42, 0x69, 0x61, 0x73, 0x41, 0x64, 0x64, 0x3b, 0x73,
 0x65, 0x71, 0x75, 0x65, 0x6e, 0x74, 0x69, 0x61, 0x6c, 0x5f, 0x37, 0x2f,
 0x64, 0x65, 0x6e, 0x73, 0x65, 0x5f, 0x33, 0x31, 0x2f, 0x52, 0x65, 0x6c,
 0x75, 0x00, 0x00, 0x00, 0x02, 0x00, 0x00, 0x00, 0x01, 0x00, 0x00, 0x00,
 0x14, 0x00, 0x00, 0x00, 0xd0, 0xfc, 0xff, 0xff, 0x80, 0x00, 0x00, 0x00,
 0x0a, 0x00, 0x00, 0x00, 0x1c, 0x00, 0x00, 0x00, 0x14, 0x00, 0x00, 0x00,
 0x04, 0x00, 0x00, 0x00, 0x02, 0x00, 0x00, 0x00, 0xff, 0xff, 0xff, 0xff,
 0x03, 0x00, 0x00, 0x00, 0xbc, 0xfc, 0xff, 0xff, 0x55, 0x00, 0x00, 0x00,
 0x73, 0x65, 0x71, 0x75, 0x65, 0x6e, 0x74, 0x69, 0x61, 0x6c, 0x5f, 0x37,
 0x2f, 0x64, 0x65, 0x6e, 0x73, 0x65, 0x5f, 0x33, 0x30, 0x2f, 0x4d, 0x61,
 0x74, 0x4d, 0x75, 0x6c, 0x3b, 0x73, 0x65, 0x71, 0x75, 0x65, 0x6e, 0x74,
 0x69, 0x61, 0x6c, 0x5f, 0x37, 0x2f, 0x64, 0x65, 0x6e, 0x73, 0x65, 0x5f,
 0x33, 0x30, 0x2f, 0x42, 0x69, 0x61, 0x73, 0x41, 0x64, 0x64, 0x3b, 0x73,
 0x65, 0x71, 0x75, 0x65, 0x6e, 0x74, 0x69, 0x61, 0x6c, 0x5f, 0x37, 0x2f,
 0x64, 0x65, 0x6e, 0x73, 0x65, 0x5f, 0x33, 0x30, 0x2f, 0x52, 0x65, 0x6c,
 0x75, 0x00, 0x00, 0x00, 0x02, 0x00, 0x00, 0x00, 0x01, 0x00, 0x00, 0x00,
 0x03, 0x00, 0x00, 0x00, 0xca, 0xfd, 0xff, 0xff, 0x38, 0x00, 0x00, 0x00,
 0x09, 0x00, 0x00, 0x00, 0x0c, 0x00, 0x00, 0x00, 0x04, 0x00, 0x00, 0x00,
 0x3c, 0xfd, 0xff, 0xff, 0x1c, 0x00, 0x00, 0x00, 0x73, 0x65, 0x71, 0x75,
 0x65, 0x6e, 0x74, 0x69, 0x61, 0x6c, 0x5f, 0x37, 0x2f, 0x64, 0x65, 0x6e,
 0x73, 0x65, 0x5f, 0x33, 0x33, 0x2f, 0x4d, 0x61, 0x74, 0x4d, 0x75, 0x6c,
 0x00, 0x00, 0x00, 0x00, 0x02, 0x00, 0x00, 0x00, 0x06, 0x00, 0x00, 0x00,
 0x0a, 0x00, 0x00, 0x00, 0x12, 0xfe, 0xff, 0xff, 0x38, 0x00, 0x00, 0x00,
 0x08, 0x00, 0x00, 0x00, 0x0c, 0x00, 0x00, 0x00, 0x04, 0x00, 0x00, 0x00,
 0x84, 0xfd, 0xff, 0xff, 0x1c, 0x00, 0x00, 0x00, 0x73, 0x65, 0x71, 0x75,
 0x65, 0x6e, 0x74, 0x69, 0x61, 0x6c, 0x5f, 0x37, 0x2f, 0x64, 0x65, 0x6e,
 0x73, 0x65, 0x5f, 0x33, 0x32, 0x2f, 0x4d, 0x61, 0x74, 0x4d, 0x75, 0x6c,
 0x00, 0x00, 0x00, 0x00, 0x02, 0x00, 0x00, 0x00, 0x0a, 0x00, 0x00, 0x00,
 0x14, 0x00, 0x00, 0x00, 0x5a, 0xfe, 0xff, 0xff, 0x38, 0x00, 0x00, 0x00,
 0x07, 0x00, 0x00, 0x00, 0x0c, 0x00, 0x00, 0x00, 0x04, 0x00, 0x00, 0x00,
 0xcc, 0xfd, 0xff, 0xff, 0x1c, 0x00, 0x00, 0x00, 0x73, 0x65, 0x71, 0x75,
 0x65, 0x6e, 0x74, 0x69, 0x61, 0x6c, 0x5f, 0x37, 0x2f, 0x64, 0x65, 0x6e,
 0x73, 0x65, 0x5f, 0x33, 0x31, 0x2f, 0x4d, 0x61, 0x74, 0x4d, 0x75, 0x6c,
 0x00, 0x00, 0x00, 0x00, 0x02, 0x00, 0x00, 0x00, 0x14, 0x00, 0x00, 0x00,
 0x03, 0x00, 0x00, 0x00, 0xa2, 0xfe, 0xff, 0xff, 0x38, 0x00, 0x00, 0x00,
 0x06, 0x00, 0x00, 0x00, 0x0c, 0x00, 0x00, 0x00, 0x04, 0x00, 0x00, 0x00,
 0x14, 0xfe, 0xff, 0xff, 0x1c, 0x00, 0x00, 0x00, 0x73, 0x65, 0x71, 0x75,
 0x65, 0x6e, 0x74, 0x69, 0x61, 0x6c, 0x5f, 0x37, 0x2f, 0x64, 0x65, 0x6e,
 0x73, 0x65, 0x5f, 0x33, 0x30, 0x2f, 0x4d, 0x61, 0x74, 0x4d, 0x75, 0x6c,
 0x00, 0x00, 0x00, 0x00, 0x02, 0x00, 0x00, 0x00, 0x03, 0x00, 0x00, 0x00,
 0x03, 0x00, 0x00, 0x00, 0xea, 0xfe, 0xff, 0xff, 0x50, 0x00, 0x00, 0x00,
 0x05, 0x00, 0x00, 0x00, 0x0c, 0x00, 0x00, 0x00, 0x04, 0x00, 0x00, 0x00,
 0x5c, 0xfe, 0xff, 0xff, 0x35, 0x00, 0x00, 0x00, 0x73, 0x65, 0x71, 0x75,
 0x65, 0x6e, 0x74, 0x69, 0x61, 0x6c, 0x5f, 0x37, 0x2f, 0x64, 0x65, 0x6e,
 0x73, 0x65, 0x5f, 0x33, 0x33, 0x2f, 0x42, 0x69, 0x61, 0x73, 0x41, 0x64,
 0x64, 0x2f, 0x52, 0x65, 0x61, 0x64, 0x56, 0x61, 0x72, 0x69, 0x61, 0x62,
 0x6c, 0x65, 0x4f, 0x70, 0x2f, 0x72, 0x65, 0x73, 0x6f, 0x75, 0x72, 0x63,
 0x65, 0x00, 0x00, 0x00, 0x01, 0x00, 0x00, 0x00, 0x06, 0x00, 0x00, 0x00,
 0x46, 0xff, 0xff, 0xff, 0x50, 0x00, 0x00, 0x00, 0x04, 0x00, 0x00, 0x00,
 0x0c, 0x00, 0x00, 0x00, 0x04, 0x00, 0x00, 0x00, 0xb8, 0xfe, 0xff, 0xff,
 0x35, 0x00, 0x00, 0x00, 0x73, 0x65, 0x71, 0x75, 0x65, 0x6e, 0x74, 0x69,
 0x61, 0x6c, 0x5f, 0x37, 0x2f, 0x64, 0x65, 0x6e, 0x73, 0x65, 0x5f, 0x33,
 0x32, 0x2f, 0x42, 0x69, 0x61, 0x73, 0x41, 0x64, 0x64, 0x2f, 0x52, 0x65,
 0x61, 0x64, 0x56, 0x61, 0x72, 0x69, 0x61, 0x62, 0x6c, 0x65, 0x4f, 0x70,
 0x2f, 0x72, 0x65, 0x73, 0x6f, 0x75, 0x72, 0x63, 0x65, 0x00, 0x00, 0x00,
 0x01, 0x00, 0x00, 0x00, 0x0a, 0x00, 0x00, 0x00, 0xa2, 0xff, 0xff, 0xff,
 0x50, 0x00, 0x00, 0x00, 0x03, 0x00, 0x00, 0x00, 0x0c, 0x00, 0x00, 0x00,
 0x04, 0x00, 0x00, 0x00, 0x14, 0xff, 0xff, 0xff, 0x35, 0x00, 0x00, 0x00,
 0x73, 0x65, 0x71, 0x75, 0x65, 0x6e, 0x74, 0x69, 0x61, 0x6c, 0x5f, 0x37,
 0x2f, 0x64, 0x65, 0x6e, 0x73, 0x65, 0x5f, 0x33, 0x31, 0x2f, 0x42, 0x69,
 0x61, 0x73, 0x41, 0x64, 0x64, 0x2f, 0x52, 0x65, 0x61, 0x64, 0x56, 0x61,
 0x72, 0x69, 0x61, 0x62, 0x6c, 0x65, 0x4f, 0x70, 0x2f, 0x72, 0x65, 0x73,
 0x6f, 0x75, 0x72, 0x63, 0x65, 0x00, 0x00, 0x00, 0x01, 0x00, 0x00, 0x00,
 0x14, 0x00, 0x00, 0x00, 0x00, 0x00, 0x0e, 0x00, 0x14, 0x00, 0x04, 0x00,
 0x00, 0x00, 0x08, 0x00, 0x0c, 0x00, 0x10, 0x00, 0x0e, 0x00, 0x00, 0x00,
 0x50, 0x00, 0x00, 0x00, 0x02, 0x00, 0x00, 0x00, 0x0c, 0x00, 0x00, 0x00,
 0x04, 0x00, 0x00, 0x00, 0x80, 0xff, 0xff, 0xff, 0x35, 0x00, 0x00, 0x00,
 0x73, 0x65, 0x71, 0x75, 0x65, 0x6e, 0x74, 0x69, 0x61, 0x6c, 0x5f, 0x37,
 0x2f, 0x64, 0x65, 0x6e, 0x73, 0x65, 0x5f, 0x33, 0x30, 0x2f, 0x42, 0x69,
 0x61, 0x73, 0x41, 0x64, 0x64, 0x2f, 0x52, 0x65, 0x61, 0x64, 0x56, 0x61,
 0x72, 0x69, 0x61, 0x62, 0x6c, 0x65, 0x4f, 0x70, 0x2f, 0x72, 0x65, 0x73,
 0x6f, 0x75, 0x72, 0x63, 0x65, 0x00, 0x00, 0x00, 0x01, 0x00, 0x00, 0x00,
 0x03, 0x00, 0x00, 0x00, 0x14, 0x00, 0x18, 0x00, 0x04, 0x00, 0x00, 0x00,
 0x08, 0x00, 0x0c, 0x00, 0x10, 0x00, 0x00, 0x00, 0x00, 0x00, 0x14, 0x00,
 0x14, 0x00, 0x00, 0x00, 0x3c, 0x00, 0x00, 0x00, 0x01, 0x00, 0x00, 0x00,
 0x20, 0x00, 0x00, 0x00, 0x18, 0x00, 0x00, 0x00, 0x04, 0x00, 0x00, 0x00,
 0x02, 0x00, 0x00, 0x00, 0xff, 0xff, 0xff, 0xff, 0x03, 0x00, 0x00, 0x00,
 0x04, 0x00, 0x04, 0x00, 0x04, 0x00, 0x00, 0x00, 0x0e, 0x00, 0x00, 0x00,
 0x64, 0x65, 0x6e, 0x73, 0x65, 0x5f, 0x33, 0x30, 0x5f, 0x69, 0x6e, 0x70,
 0x75, 0x74, 0x00, 0x00, 0x02, 0x00, 0x00, 0x00, 0x01, 0x00, 0x00, 0x00,
 0x03, 0x00, 0x00, 0x00, 0x02, 0x00, 0x00, 0x00, 0x2c, 0x00, 0x00, 0x00,
 0x10, 0x00, 0x00, 0x00, 0x0c, 0x00, 0x0c, 0x00, 0x07, 0x00, 0x00, 0x00,
 0x00, 0x00, 0x08, 0x00, 0x0c, 0x00, 0x00, 0x00, 0x00, 0x00, 0x00, 0x19,
 0x19, 0x00, 0x00, 0x00, 0x0c, 0x00, 0x10, 0x00, 0x07, 0x00, 0x00, 0x00,
 0x08, 0x00, 0x0c, 0x00, 0x0c, 0x00, 0x00, 0x00, 0x00, 0x00, 0x00, 0x09,
 0x09, 0x00, 0x00, 0x00, 0x09, 0x00, 0x00, 0x00
};

#endif //MODEL_H